const unsigned char model_tflite[] = {
  0x63, 0x6f, 0x6e, 0x76, 0x65, 0x72, 0x74, 0x65, 0x72, 0x20, 0x3d, 0x20,
  0x74, 0x66, 0x2e, 0x6c, 0x69, 0x74, 0x65, 0x2e, 0x54, 0x46, 0x4c, 0x69,
  0x74, 0x65, 0x43, 0x6f, 0x6e, 0x76, 0x65, 0x72, 0x74, 0x65, 0x72, 0x2e,
  0x66, 0x72, 0x6f, 0x6d, 0x5f, 0x6b, 0x65, 0x72, 0x61, 0x73, 0x5f, 0x6d,
  0x6f, 0x64, 0x65, 0x6c, 0x28, 0x6d, 0x6f, 0x64, 0x65, 0x6c, 0x29, 0x0a,
  0x77, 0x69, 0x74, 0x68, 0x20, 0x6f, 0x70, 0x65, 0x6e, 0x28, 0x22, 0x6d,
  0x6f, 0x64, 0x65, 0x6c, 0x2e, 0x74, 0x66, 0x6c, 0x69, 0x74, 0x65, 0x22,
  0x2c, 0x20, 0x22, 0x77, 0x62, 0x22, 0x29, 0x20, 0x61, 0x73, 0x20, 0x66,
  0x3a, 0x0a, 0x20, 0x20, 0x20, 0x20, 0x66, 0x2e, 0x77, 0x72, 0x69, 0x74,
  0x65, 0x28, 0x63, 0x6f, 0x6e, 0x76, 0x65, 0x72, 0x74, 0x65, 0x72, 0x2e,
  0x63, 0x6f, 0x6e, 0x76, 0x65, 0x72, 0x74, 0x28, 0x29, 0x29, 0x0a
};
const unsigned int model_tflite_len = 131;
